0140
0400
013f
ff44
0313
ff68
0088
0057
fbad
0086
008c
ff9b
ffbc
fd94
0028
02d5
ffaa
ff04
fedb
03ce
fd72
0198
0036
039f
0279
ffd5
fd18
02b2
02c0
fdeb
0168
fe7d
fe89
fcf7
01c2
0083
00ef
02bd
0143
011a
016a
fdfe
ffef
fdba
fe4e
ffd4
0201
03e2
fdf4
0054
ffde
00ff
0119
00af
fe2d
00bf
01af
ff08
03bb
ff8f
fece
008f
ff84
fd6c
fff3
0302
03c7
feee
01b5
0040
0089
0264
019b
004a
fe40
fde1
ffe1
009c
00f3
0179
01d9
fb78
01b4
fe06
021a
00a3
0130
fefb
0088
fc7b
0211
ff60
fb1e
0200
0329
fe59
0249
fe96
fbba
ff53
009d
0040
0032
008f
0069
ff98
fede
ff80
ff56
ff6e
fdec
fefa
0028
0095
ffe1
ffa7
0102
0189
0148
fcb3
ff24
0155
00f9
0148
0098
fe64
024e
fd70
01dc
fff8
fd39
ff41
0245
fee4
fdb8
ff75
fe75
fda4
00d3
0181
fef6
00fd
ff45
ffd0
003c
02d1
00f5
fe1e
00f9
ff95
ff1f
fe6b
fff3
ffe3
ff3e
fd60
fcc8
003e
0056
041e
ffaa
01ed
0241
ffe3
0025
ff31
0359
fd28
ffed
029c
ffcc
feec
0070
00fe
0112
0088
016a
01c9
fdea
ff49
01a4
00ec
0071
0145
01cc
fe62
fdb0
fdd3
0381
fe03
ff8f
ffa6
01f2
fcb9
ffed
024a
021a
00c6
ff82
0350
fcd9
01da
00f5
011d
0080
0063
01c1
fdd3
fda6
004e
0019
004f
0300
fee8
016b
00ba
0476
fd5b
fef8
ff23
027d
fe74
0320
0303
01a2
00d3
fd11
0058
fd4d
ff51
0062
ff6b
01cb
ffc2
fd14
fe00
fd99
ff67
025a
00f4
00a4
fd94
0478
fff2
048f
fe5d
feee
04e7
fdf9
00ca
ff5d
fe77
0413
fe1b
01b1
0215
fe18
fc6c
fca4
fe7e
006b
00a2
ffa5
ffcd
01d6
0173
00b7
fed6
0177
0057
fe97
feea
0251
037b
ff00
fc15
011c
fe4c
0162
ff4b
0434
0036
01b4
fdb5
faaf
0041
007e
015c
fef5
fd90
fcfb
010b
0157
fe59
ff01
fea0
fc6d
0060
0198
ff94
fd51
ffa0
0293
0404
0082
fe83
fc42
fd16
ffd5
006d
007c
ff81
fd17
fd07
0047
fe72
0276
fd40
032e
febe
006c
006c
ff5a
fc34
ff17
02df
fd96
fc87
ff96
ff39
fd90
fe95
ff18
ff39
004f
0155
00bb
00a5
032b
0211
fa82
ff51
fd07
feb3
0174
ff9f
ff31
027c
fd2a
ffd3
0109
000c
fdce
fff5
0186
00ac
0099
0094
0041
fda9
ff6b
00d0
fa21
016e
00a3
fdf5
fe98
ff9e
00c8
ff4b
0233
00c7
fe84
ff1d
006e
0160
0148
ffd1
0048
fff4
018d
fe24
0123
fc82
00da
007c
0000
fbfb
02f4
01b2
000c
00dd
fe3b
00f7
02f1
fdc7
0514
ff2d
018f
fe71
00bc
fd99
fec2
ff92
fec3
ff8b
01d7
fd98
fdbf
0017
fef0
fe1b
0040
fef0
00a2
ffed
ff9f
ffdf
01ee
027a
ffb3
fe0f
fd26
fbca
fdc8
fe65
ffe7
fc74
02b2
0201
0259
ff08
0076
fe37
02ec
fdb6
ff08
02af
04b2
ffd4
ff38
fb46
033a
0095
fc73
01a5
0128
ff55
fef3
0160
0071
00eb
0250
0240
016f
011b
fd97
fde6
018b
0138
00fa
0196
fef5
0111
fe23
001e
01c1
feb9
03af
0223
0296
ff9a
fd62
feaf
010a
ff79
015c
0049
fee3
01c3
028d
fe9f
00f7
004c
0088
ffce
fda3
02a8
fe08
fe5c
013d
0057
fe80
fec3
ffb3
ff2d
0138
fdce
00af
02e3
0061
fe53
fea3
0015
fed3
0254
fc88
0317
fc2f
ffec
fdf5
018c
fe8a
fddd
ff5c
ff3a
fc5a
00db
fb7d
0238
ff61
01cc
fede
fe81
013b
fee6
fd15
ffd6
fd67
fffa
029a
01d1
0001
ffb0
ff67
fecc
00ab
ffb4
ff48
0082
fc32
03b0
0130
fd5f
0038
fddf
fefc
fe50
020f
fc61
ff55
fce4
fff6
ff67
fd59
02b7
02f3
fef0
00fc
ffb8
0076
02e4
ff7e
0361
ff75
ffd3
0390
0085
fc2b
006d
fd95
fcdd
fe39
009d
fde7
fd5c
ff49
00c3
feb0
fd89
fbe7
fe89
0198
01e4
017d
ffab
003e
0264
fe5d
00b0
fc79
0149
ff26
fdd2
0175
fde8
fe5d
02e6
fe07
fec3
feb6
017b
fc8a
025c
ff8b
ff67
fe4f
ffba
02c6
0067
fe3e
ff58
0102
0029
ff84
0124
00ae
fdf8
fc64
00f2
0381
fe74
ffbc
028e
0348
001f
025b
016a
fef4
fc31
fe49
00b2
00ca
ff0e
fe62
fcfc
fcd5
ffc5
fd08
fff9
fe7f
ff32
0402
0017
ff5a
ffac
fd39
0286
0199
feff
006f
febc
00bf
fd78
0081
02d5
00d7
fee3
01ca
03ae
0161
002f
fe7d
00d2
03a0
fc32
01d8
0047
02db
ffc2
fbec
03c1
fdd0
0182
ffc2
ffed
0042
fef9
005a
0095
0183
003c
009a
0281
fe4d
0022
00e7
01f4
ffe1
0030
ff59
0257
ff65
014b
ffcf
000f
fdb2
001b
fff2
fd34
fe9b
ff25
fd1e
fdb4
02c5
fe0f
fe62
fd5e
0250
01bb
009a
0029
ff13
ff77
febb
013e
014e
01b9
03dd
0155
0132
01e5
fd18
0002
fd26
02f9
ff12
0358
0200
fef5
fcdf
fde1
01f5
ff65
fd35
ff94
0331
0309
ff1c
0095
0128
fd36
feff
ff3c
00c3
ff0a
fd5d
009d
feca
fdaf
fdb0
ff94
02bc
ffac
0206
fbc4
fe6b
fda1
ff7b
0174
fef8
fda7
01c9
fe90
0084
febf
00fa
ff47
0180
012c
0430
ffd9
fe29
fdd0
fee0
00b5
fea7
02dd
0061
fe28
ff21
fecc
0056
fe11
026b
ff54
ff8d
01be
fe97
ffff
0361
00c6
008e
ff1a
fe20
034c
ffb3
0394
feb6
025e
ff9d
00c9
024b
00d5
0183
fd0e
ff22
03db
ff91
009a
ffb1
fed4
fd2f
fdd9
032c
ffda
fdc2
fe4c
01a6
fe37
fed2
fde5
fda0
031c
ffbc
ff65
fede
0158
001e
008d
0042
ff54
ff18
fcbb
ff13
0414
fdaa
0002
00a2
0240
0503
ff40
fe59
0200
0067
03c9
015e
febd
ffa1
00cc
00f2
fddd
fc5f
fcfa
012a
ffb6
fc8a
fef6
fc59
ff81
fe5e
fef3
ffd7
0058
001d
0270
0487
019b
ffa4
016b
fea1
fe71
fe5b
008d
0256
0432
027f
0151
feb4
0025
0106
ffc5
0383
fe74
fea7
00b7
03c9
fc95
fe68
026e
feb8
03e2
fe73
0206
ffd5
00de
fe0c
fcf9
0176
ff00
fe45
fdea
fe08
028d
fe43
fefa
03b5
ff2f
fffd
00b1
ff71
feb4
0269
009a
fed0
fd63
fdd1
fe11
fbef
0237
0031
0103
fd53
ff16
ff8c
0024
ff9c
fda7
020f
0157
0024
01f2
0247
02a1
004f
ff68
ff18
01ae
fead
fe47
010c
00fc
0133
fe66
0091
01ba
ff18
ff7f
ff70
02dd
01b3
fd79
fd22
013a
ff99
0101
0080
01e7
fcef
fef8
0079
0071
fe36
ff02
fee5
0016
0152
ff7b
ffb6
fc0d
fe00
037e
fcc4
0293
ff70
fc4c
02c0
026c
ff0d
01a3
ff54
0019
0050
ff90
00fd
00ba
ff04
008f
ff05
0041
ff10
002f
0305
fec4
fd3e
0302
008d
fec6
ff87
fe47
01c5
0158
012f
006a
fc22
fdc3
0089
fafe
ffda
fe11
0132
ffa1
01ff
00a3
0037
fe2a
012f
047d
fcc6
fe12
0323
00f7
ff71
0179
00a0
fec5
febd
019d
00a6
0208
013c
fed8
02e0
fe42
ff25
fe86
fd5c
012d
fe04
feb6
01c7
01a2
fed4
fd89
ffce
fcfd
fe18
ff45
ffb4
fef4
ffba
029b
012f
029a
01b1
0070
fdb6
fd7b
fff6
ff3b
fe3d
00c6
024f
ffdf
0029
fef8
feb4
03b9
fda2
ffb2
ff28
ffcb
01f9
01e0
ffbc
021e
fe8e
00ac
035b
fee9
0063
02d3
fe69
001f
ff68
fde5
00c3
fe69
031f
000a
ff9b
0014
0032
ffa0
001c
feeb
ff0f
00fe
fbf9
fe7e
0004
00a5
ff43
0042
ff57
fc7e
01c6
0081
fe32
02c8
0147
fed2
0216
0104
0190
fede
fef3
fe73
fefb
fba3
020b
fdc6
0113
fd8d
0038
fdc0
fff6
fcfc
fee2
013e
0067
0053
fe62
fbdc
fe51
ff09
02ca
0113
0099
fee7
fea0
0135
ff4c
ff5d
039e
fe26
ff78
ff87
fec6
fd57
0266
fd56
fe4a
007c
fda8
ffb5
ff84
ff8e
ffbc
fd58
fef7
026c
0232
fee8
020c
fe3a
fd6e
fc32
fde7
00de
ff63
0322
0195
ff55
ff94
ff98
01e2
ff47
fff9
fe9d
0273
ff57
fec8
fd22
01d2
fee2
ffde
ff3a
ffa6
fc43
fe85
fdf5
041c
028a
00d3
04b0
0269
fd77
fd94
0081
ffdf
0066
fe72
037b
ff57
021d
02c0
fee5
0116
0301
02c0
016b
00d4
0026
0264
0119
003c
ff1c
fd73
ffac
0384
ff17
feca
ff8c
ff99
fef2
0137
009d
023b
0122
005a
fc09
005f
fec5
0208
0023
fe90
fefa
fdbc
fef8
0098
0239
00fb
0187
01ae
ff64
02bd
fd74
003c
ff02
fc4b
0321
fc3c
014d
0362
ff9e
ffc8
fc6b
ff87
02bc
ff04
fe2a
fba2
026d
00c7
ff6e
01f7
ff00
ff5f
0401
fe4f
008c
006c
002f
0003
fd89
ffbe
ff8b
febd
fe6e
fe1c
fe79
00c5
0012
031f
0123
fee1
fefc
ffad
ff57
0002
03a9
ffb7
0040
fdc1
fd2c
ffbf
ff37
0061
028f
ff0a
feb6
01d8
ff2e
001c
ffcd
038b
fcd4
fe74
013a
0230
fe0f
0239
ff1d
fea1
fed0
00ab
00ea
fe5a
0063
ff48
fdc0
0331
fe2d
0031
fdce
ff30
002c
004e
fe12
ffc6
00a9
02cc
0181
0206
0132
febe
ff61
01b6
feb4
fde3
ffeb
fc92
fe86
fdda
ff39
0279
0460
011e
fe30
0161
00cb
fedd
01a9
ff17
fee8
001c
014b
ff4e
00ab
fc8d
008d
ff19
ff04
fb3d
fd44
fcb5
0124
fe43
0084
013e
fef8
fe10
0248
007e
fdad
00e8
fec0
00e0
018f
fe76
00ed
fa52
0108
fc4e
04c3
00ab
fed8
0223
fe85
003a
ff76
0001
fef2
00d3
fe9b
0036
012f
fee1
0193
00ea
ff71
ff08
ffe8
ff25
ff08
ffc0
ff9a
0034
02ad
01b8
019a
00fa
fedd
fe00
ff92
023d
0243
fd40
fca8
0328
02b0
fed2
ffdb
0018
0215
ff14
011e
0084
0091
01fd
0047
fd95
01b4
ff15
01b1
0080
fe28
007b
fecd
0082
ff3d
01e8
fea8
ff4f
feae
fe81
ff7e
0067
010f
0019
ff24
fd0f
01c7
ff0b
00c1
fdfe
02db
014e
fe53
00a8
0288
ffab
fccb
00dd
037c
fcfd
01ef
ff90
ffd4
005d
0006
01a0
fdce
ffd6
fe3c
ff09
059b
fe68
00d9
0094
fc61
fdd6
fc93
ffb6
fd85
fe4f
fd1b
0145
0120
02cd
ffab
0164
0221
03f2
fda5
fe79
fe26
fd63
0159
015f
fd5d
fdf4
0097
ff13
006f
ffae
0200
0220
fc8d
028f
ff17
fddd
0123
fe27
fda1
ff59
0291
fc92
fe09
fccf
fdba
ffb8
fd83
0096
0033
015d
039f
fe23
ff18
fedc
ff26
00c3
0122
ff0c
0283
ff7d
ffc8
fe52
0142
0168
0001
fbf1
ff8a
011e
ff37
ffd1
00f7
fc92
0180
fc6e
002e
0116
ff0e
00e2
00ee
feff
ff33
0184
0094
0122
00c6
feed
fe02
fe13
fd7b
fc36
fee3
fe4d
001f
ff92
00b4
021f
fe26
ff87
ff48
fe5a
fdc0
001d
007f
ff7a
010f
0097
01e8
0015
004a
021d
ff30
00df
01e0
01b4
0192
012e
ff78
01db
ff0d
ff35
ff9a
0106
0309
027e
0267
014e
004b
fe5d
fee6
0044
0338
0117
00b4
0119
fd79
fec1
00f9
01ee
fee2
010e
fc73
00f4
02b1
ff9f
fed7
050b
0018
029c
fec7
fdc2
fd1e
01e1
fce0
fc3d
fed8
ff44
ff7b
fda9
fe7a
001c
fc5b
002f
0124
0297
00dc
022f
0091
02d1
003e
03f0
0122
fef3
0059
fcb7
0249
ff7c
0253
042a
0005
0012
ffb7
00b4
042e
026c
0075
0200
fc1f
003c
faaa
021f
fbe9
0108
fe4c
04d3
fd9e
ff61
0331
00d6
0064
ff91
002e
fe96
ffb0
ffeb
0161
0027
0199
fd32
02a9
00dd
0317
0101
ffcf
0044
fdd3
ff93
005a
0041
fcea
00ed
fe1c
ff98
019b
feab
ffc4
ff2c
0105
fdd4
fd13
fc17
041a
0147
030d
ff4b
021e
ff29
fd9e
0199
ff72
007d
00ca
011e
ff99
fba5
fdc3
0111
03ac
ffef
029a
fb85
02cf
fddc
fe17
ff6f
008f
fdbe
01e1
fd48
0042
fe55
0067
fc32
fe27
fda5
01b7
fbc7
0344
ff08
005c
fb32
fe7f
0194
02d4
fe22
0223
0054
0136
ff99
02db
fcc8
0136
02e6
0173
ff76
00fa
007e
ff7b
0204
0288
fd6f
0381
0019
ffae
01bf
fe8e
00e2
ff62
ffef
00bb
000a
ff62
0246
0115
00f1
01ab
fc0f
01b7
045a
fe0d
04c0
fca0
feaf
0145
fedf
fe52
004a
00d3
01a6
ff7d
fc2d
0114
0271
ff21
017c
fd6e
fea3
fdc3
002e
fdca
0320
00f7
0015
015a
0269
00bc
fe6c
002a
ff2d
0104
ff45
0022
01fb
fe7e
ffb9
ff8f
feda
04d3
0234
fec2
feca
00a5
0263
ffcf
019c
fcb5
00c3
0280
004e
fecd
0218
fe25
ff78
0128
fe4a
0500
ffa5
fc35
0215
00af
ffee
00ee
0136
ffcf
014f
00c0
01d0
ff1a
ff4a
0133
0156
fff8
0032
01d0
fe68
fdc0
0183
00bd
feaf
ff79
fe94
ff06
0280
001a
fde9
00ff
0100
ffe3
ffdf
00f4
0174
ffd1
fef0
ff92
01d9
0176
ff35
055b
04bc
fe04
01f1
fe1f
0015
02ee
0176
fdc0
00fa
fb60
fd02
0011
fe71
02f9
0040
0269
0039
0052
0053
03b5
030d
fde4
ff83
032e
fd29
0378
0132
fe13
fbcf
001d
0349
0071
010c
00eb
ff89
00c0
fed1
feeb
fe42
ff4b
ff4b
005a
ff59
fce0
fdea
ff7f
00ff
ff74
00bd
fd19
023e
ff21
fe7b
0013
00da
ff93
013f
fcab
ffd0
01a0
00e7
ff77
009d
0350
fddf
007e
003d
0151
fdd9
0305
01a5
045f
0027
fedd
fc9d
ff1c
fd9b
fc35
fe5e
ff82
ffaf
04e0
02f1
005f
015c
ff4a
ff38
00f1
ffca
0305
016b
fe0c
fd31
004d
0245
fe07
fe3f
0488
000f
ff60
04b1
ff72
fddf
0028
fda5
fd03
01d2
fef3
00ed
fde9
ff8c
fdaf
fe39
034d
016a
0149
fff6
ff58
fff4
ff30
00f9
ffd3
0060
050c
ffff
fdf3
0302
fe0f
fe0d
036b
00d8
fe19
0031
02ad
fe4c
0069
049c
ffc3
fcdb
ff49
ff7a
ff06
034e
0067
0014
010f
004d
fc5e
0149
010b
00bf
0165
021d
02a0
fcfd
fe93
fe15
ff24
00b2
fca2
0143
fd25
fe20
fdb3
ff12
009b
fc1f
02f2
fe2e
0415
fd19
01a1
0113
ff90
fd4d
ff1e
026f
019e
019f
02d0
00eb
ffe2
01a5
0151
0299
00e7
0127
01e9
0000
fdf5
ffef
0030
0220
013b
ff0e
0070
ff70
ff12
0189
fe08
0202
ff5a
00d1
ff3f
fec0
fed0
0198
fccc
0039
fec9
ff0b
0370
feae
fe9c
fd15
fc79
ff8b
feb5
014e
0062
fe49
02c5
0213
0009
017a
033b
00be
fef8
0039
0054
0086
0229
0099
fce3
fe7e
fdfd
00ab
ff7e
00aa
ff11
fea0
01eb
00c3
ff8c
fcdd
fd93
fdc4
ffe2
fe31
0205
0166
ffb0
fe65
ff0d
008d
000a
ff9a
0236
ff57
ffbd
010b
0083
020a
ff12
fe88
013e
003e
017e
015c
0155
fe29
ffd1
fefc
ff1f
003c
02dc
03f0
fe73
ffec
fe7b
fe88
ff7e
fcf1
00ae
fde0
ffac
fe7f
0148
0182
0124
ffe3
fcf7
fe00
00d5
feda
ff65
00f8
03fc
fe98
00d0
feec
fde0
ff5a
ff86
ff2e
00f5
ff74
fc1c
00ff
00e8
fd4b
feba
ff17
0147
ff87
01cb
fe92
019b
0001
ff4d
0192
0180
0116
ffc2
01f9
0240
ff6a
0034
fd24
feb7
01d6
fe33
00a1
ffee
0319
0043
fc76
ff34
00cc
0125
00e0
0265
007a
fc6e
fecb
0066
feb6
00a8
0089
030a
feab
fdbc
fda2
ff1a
00f2
ffb4
feb3
fde9
ff8e
012b
021a
025b
0157
0093
fed3
0096
02cc
0034
0168
0001
00e5
fe41
fd96
fe25
fc54
019f
047f
ff9b
fe81
00ac
0302
002c
026c
fffb
0070
fd24
00a9
fe3f
fe06
fd0c
0122
044f
fea4
ff7e
ff52
00d5
01db
ffee
ff3f
fc9c
0131
0026
fc97
fdc9
fe24
ff29
fe4f
0177
fe35
ff0c
fe07
014d
ff30
0003
010b
fffb
ffbc
016b
00b5
0038
ff46
004f
fea5
02d2
0089
00d9
feca
ff94
014d
fc53
ff7d
feca
fddd
0148
fe8d
fe0a
01e3
fc75
01f3
0203
fc25
ff92
008a
01eb
ff00
ffb0
0167
fe4d
0119
0215
fe06
0091
0026
fe05
0049
ff84
fe81
ff52
fe28
00c0
00c6
016d
0030
0066
fef2
013b
fed2
0111
ff23
fe8a
00bc
0315
019d
ff27
fd61
fd2b
0087
004f
fc5c
ffb3
0208
fff4
fff0
fdd0
014d
feab
feed
0229
fe17
ff9e
fffb
00ba
02e6
fff7
00fc
ffd3
fcd8
0219
0162
0244
fe04
0045
0396
0428
0024
008f
fe31
ff9d
fe8e
01f9
ff3d
ffd4
017f
ffc0
01f6
ffaf
0169
fe18
fff8
fd38
fe5f
fe9c
03a5
fe01
03a8
013f
00df
fea0
0189
038f
01d9
00c0
0025
014d
004d
ff9c
01a4
ff60
01ac
03f8
01d0
ff17
ffa6
0200
fe72
0386
ffa2
0043
00cc
0624
ffd6
feec
ff3d
013d
0333
fe15
ff56
ff96
ff46
02d5
01ac
02ac
ff18
fdef
ffe7
fe97
0068
0200
fbe0
0164
040a
fdb0
009b
fdc7
fe5b
0037
0371
0309
0037
01f0
fac9
ff56
ff87
0115
fe86
fe55
fe42
0113
00b5
ff4f
01c4
ffbc
fed1
feb1
fc0d
004f
014f
00f0
0505
ff56
fd91
035f
02f4
fe85
ffe4
ff14
0105
ff5d
0174
01db
03bd
ff39
0176
01f7
0075
030f
00d6
0045
0403
fe8c
0241
fe9d
0121
018a
01ce
02bd
febf
fda7
0067
009d
ffda
04b4
003e
fd97
fea8
00e5
ffd4
023e
01af
01bd
01a1
018c
ffc8
02f4
0222
feb0
00d8
01f8
02bd
00e7
01a2
fc54
ff87
0004
fe15
ffff
ff82
fdd0
0110
fec1
ff44
01d4
fec8
02a4
00e4
fe6e
fd43
0027
fe9f
fdc6
fd9a
ff06
ff1a
004e
fda4
ff01
fed3
fe94
0274
0083
040c
017e
00b3
025e
0235
fcf2
fe7c
ff93
008a
0088
fd17
00b6
00d8
fe4e
fdcc
0113
ff2a
019a
01e9
00b6
fd4c
fe52
fc8d
ff0a
fe52
02f3
0137
ff88
fdb3
0368
fe59
fc33
fe95
fd49
018a
fe10
00f7
02d7
fe44
ffc7
039a
ff7f
ff84
ff6a
fe96
fe81
01f9
0257
fe4d
03c9
031b
ff6b
fce1
fe13
ff9e
ff8b
033e
fd97
ffc9
ffa3
018d
ff8f
ff79
fff7
ff21
010a
010a
fe5c
019b
009f
ffc8
01d8
026c
fe8e
ff52
0034
0322
00c1
0072
03c8
ff8d
01d8
feba
002f
01ba
fea6
fec2
ffc1
02d4
fce3
fee1
01df
fbdc
0391
004f
03c8
fe36
0190
fec6
008a
fe9b
fecd
fcc3
faa8
ffe5
0475
ff73
ff15
00ec
febd
ff08
fd9f
fe40
0208
fe65
0062
ff4e
fe5c
0096
018f
fdb2
00a8
017c
ff6c
ffd9
0002
0062
fde0
ff07
00c8
fe92
ffd6
ffdd
fe88
0040
0277
fe81
fed7
ffb3
fdb9
fedd
fd34
fc7b
00a2
0194
0346
ffb2
01cd
ff72
fe9d
0137
ff87
013e
008d
fe29
fded
fe0c
fec2
01b6
ffca
02af
0107
ffaa
fe63
fc4c
020c
0276
ff8f
034c
ffe1
fff4
0227
0006
ff25
ff53
fcc2
ffda
fff6
024c
0137
fe98
0185
008e
02f4
01b4
ffce
01f8
ff4c
fe31
0075
010d
01f9
fff2
001c
015e
ffdd
0309
fd33
fd9d
ff7b
0217
ffd4
fd72
0177
fde1
026b
01b5
02d7
025d
0211
0159
ff6b
ffcf
0007
0060
fefc
fe9f
02ad
fdcb
0209
03d7
fe15
029f
ffc9
02c4
fef1
0271
feb4
fd89
0356
fe6e
fd9b
0011
ff69
023f
fe5e
ff2e
017e
fea5
01f3
0207
03bf
03f6
fea3
fea7
fe47
fff8
ffc3
ff97
fdd6
0274
fd34
fefc
0182
012f
ff9c
01cb
ff61
03bd
01fa
fe97
019e
ff96
00ba
024f
fe72
02a6
ff7f
0210
00d6
fef6
fd70
fdb1
0090
fdf3
ff11
ff89
fecb
ff28
0125
021c
00e1
0137
0102
ff2c
005a
fcd0
0027
ff32
0255
fc7f
fdfb
044c
0163
029c
fe83
fd42
00e9
004d
0107
02eb
019c
fd15
ff0a
fbd7
0108
ff1f
fd9b
00ae
fdea
01e7
015a
0437
fe95
01cd
ff26
fdbb
0381
fe00
031d
ff54
015e
ff32
fe8b
fe4d
ff37
0077
02a4
fe81
000e
ff7e
ffd7
fe12
fd66
ff1e
fff0
0489
02d3
ff3d
fd8f
fcc7
01c7
0245
03ea
ff81
00bc
ff5b
02b0
01c0
fe8a
0052
fe1e
0036
fd55
005f
0240
0262
fdaa
0019
fd7b
020f
00c5
fddc
fe47
010e
fccc
0021
00af
fec1
ff80
002c
0117
fda5
fef1
0183
fb14
01d9
0286
0394
fb8d
ff22
fec7
02bd
0142
01ee
0163
fd20
00cb
fbe5
00d5
0061
ffa9
0073
0159
fe87
00ad
02bf
00bf
006f
fff9
fd8e
02b2
ff39
0013
ff70
ff54
fee3
feac
01c2
0293
0075
fdd2
ffe0
0430
0097
ffa1
fe75
0100
ff8c
026c
020d
00f8
0024
0104
0098
ff8f
0282
ffd3
fefe
fcd6
ff98
fd1c
0170
fe7b
fe46
fbbb
0085
ff6e
0152
fe40
01ee
0165
0317
ff24
0221
fe76
0033
ff8e
029f
00d3
03b2
00c1
0057
ffe1
0085
fea6
fdfe
ff00
ff53
ff0a
0420
ffac
ff74
0262
01b6
fea3
01a0
01ed
fe72
ffc1
015c
01b8
fe9d
0246
010c
fe4a
ff8f
0379
00c1
fc72
fdab
02dc
ffe8
0054
fdcf
02e9
ffca
fede
ffc6
05af
0010
00b6
fd4d
fed1
fc7e
01cf
feb8
ff28
003d
00b0
03e4
000c
01ff
fea8
fe21
fea8
ffe4
007d
01fe
01bd
fef0
008f
020a
fd7b
febb
fd9b
0126
fff5
fe5c
00f6
ff54
01dc
ffa2
00a0
fd62
00db
ff49
fccf
fc96
fe2a
017a
fc01
0238
ffac
0071
016c
fe82
fff2
ffba
fee4
019d
003b
016d
019f
00c1
0175
fde2
fd88
02bd
ff49
013a
0212
00b1
0186
fdb6
fd86
fdd1
feda
fb17
ff3d
fc82
01e1
00d1
00eb
fc59
ff43
02be
fea8
019e
fe54
ffb6
04fe
0144
027b
ffe9
fd1b
fd43
0190
0091
02bf
ff1a
00ac
feb0
0141
fc13
0012
fe54
ffc1
01ea
00bb
012f
fe81
faf6
fde1
007e
fdcc
00b3
fc87
ffb4
0283
00f3
fe66
0148
ffc0
fed3
021f
00b7
fc4e
fecb
02e9
ffc8
03bc
016c
01ca
fcdc
ff1a
02d8
0297
005f
fec0
fe4f
ff7d
ffcc
fe27
fe2a
0112
0264
00c8
0038
0293
fdbc
ffb2
ff40
ff03
fe31
01e3
011d
ff90
02e3
fd2f
ffa6
fe3c
0329
ffa9
0096
ff55
0213
0109
00eb
004c
019f
00f8
012c
fd4f
024d
020f
014f
ff78
0015
fdfc
ff19
03c7
ffca
fef8
0090
ffc8
fe02
00f1
ff33
001f
0242
0085
028d
0109
fec3
fe95
002e
fe12
00df
02d8
ff9b
ffca
039e
01af
0117
01d6
0057
02fa
01c8
fb94
0171
00c7
fd28
0229
ffea
fef6
fc1b
fffa
0005
012f
0079
fff7
fe90
ff6b
0110
fcd5
ff0c
0000
ffee
0148
036f
ff68
ff90
ff44
fbfc
0247
00a3
0156
0013
019f
ff92
0156
fed9
024e
fdd6
0155
0082
0192
ff85
feb0
ff03
ff7d
ffc0
fe37
ff72
fc86
ff47
ffab
03b0
02fe
0251
0173
fff2
fcd1
ff60
ff3b
fea1
01b4
ff88
fe86
fce9
029a
01d8
ffeb
00d3
ffd0
0168
00a3
ff2f
fedb
fd9f
ff5d
022c
fcaa
00e1
00de
feda
fd08
fedc
fedf
0112
00f2
ff79
011b
fe75
0013
021b
ff66
ffdb
fd74
ffa5
00e9
ff1b
02c1
013b
0026
01ca
0253
025b
fe24
feb0
000c
fe9f
03b7
fc76
0062
fd3b
fdf7
0271
ffc8
003b
00e5
ff1d
011f
0126
0005
ff52
0068
01cf
ffb5
ffda
fd7f
01a8
fed3
01c0
00fe
0267
00cf
fe56
046e
025a
000a
fec1
fe04
02f1
ff94
00a5
01a0
009b
0107
ffc7
0162
01f5
ffd6
00ac
ff61
0088
028f
00bd
ff57
ffe9
fe01
ff85
0271
02f7
fcbe
0161
006d
fcd4
00d0
00bc
013d
fda4
ff1a
00d4
fcfd
02d1
00ae
ff20
028b
0249
ff4c
fe41
017c
0526
007b
ff56
fdea
017d
fda0
0132
00fc
007a
ff86
03f1
0027
037a
012d
0298
ff26
00fd
001f
ffa3
fdbc
003a
0436
036e
ffc3
03af
005e
fe81
ffe8
00fa
0174
0065
0012
0131
0043
fe1b
ffc5
0007
ff2b
00dc
004a
fece
0271
ff4a
007a
ffcb
fe9e
010f
0078
0163
039d
0025
ffa0
fa9b
0104
fec3
fe9a
feef
00dd
ff7e
ff87
ff6c
fff3
ff67
fea5
fdfb
01c7
00eb
ffee
fec1
033e
ff3d
0144
fdbc
0209
0150
fe58
0028
fe11
ff66
fd95
005c
01ea
fec5
ff44
0097
fca4
003c
ff1b
000e
fad9
fdf8
ff5e
016e
fd7f
fd77
ff63
ff03
0070
fe87
0019
fe0a
0013
01ac
fedc
ff09
029d
fe5c
fdf3
fcec
fe5c
ffbc
ff15
040e
fe68
fe2c
ffb8
0226
ff1a
0041
004f
ff23
ffdc
fdbb
fb2e
ff1d
019b
ffd9
fdfb
ff6c
025f
fe18
0012
0021
01a5
febf
022b
ff19
014f
01f5
0336
034f
fe25
02b5
fd1f
feff
0080
fd81
001e
00ed
01a3
ffac
0259
0017
0194
01e8
037d
ffcf
0110
ffd2
ffaa
fe6b
01e2
fe37
fdb5
ffb1
fef7
044f
007e
0429
fd58
fea6
028e
fecf
feba
0100
feae
feac
0175
ff77
0043
022a
0259
019e
03c3
ff51
fe43
036e
00b7
ff81
fbfb
0201
019a
fea3
00c0
01c0
fd7c
016c
006c
fe4b
ff3f
ff3a
feb1
ff57
fc70
ffa9
0369
00a7
feb0
00e6
013d
00f0
020d
fe1f
01eb
fdc6
004f
fcfe
007b
fcc1
005b
0564
fca9
0034
0063
ffea
0124
fd5e
0308
00f3
014e
ffdc
0191
fd6e
01ba
fedc
00ad
015c
015c
01a7
00d3
fd7e
0208
009c
008d
fd64
fff1
00ed
00d4
0057
021f
fe06
fd8e
fc62
007a
0100
0060
0044
fc26
00e6
ff6a
0348
fda7
fdec
00aa
fc80
fe82
02a6
00d5
ff3d
035e
00c7
0083
fefc
0274
fcda
025f
01cf
0014
03d2
0086
00a9
fe65
ff1f
012a
0125
009e
0090
026b
ff91
00b7
fd1c
019b
ff7e
030c
0129
00e1
fc9c
fd2d
ffcb
fec4
feff
ff4e
fe64
01a4
00c9
02fb
fe19
03fe
fef5
005e
03ae
020e
fd17
019e
02e6
00d6
0140
fe30
fff0
ff13
fd7a
fe7b
ff29
fe6a
fe8e
feb0
029d
02be
048e
fe8e
00ac
003a
fef2
fe81
01b9
01d2
03dd
fde2
02af
ff06
fe0a
01af
ffe4
0312
fc97
022e
fe2f
fe9e
fc1d
0123
ff40
025c
0085
fe29
fe0b
fde3
fd80
00f2
fdec
fed9
0001
ff7b
0022
0152
00eb
fdeb
fff9
fd33
ff6f
00d0
ff56
00d3
02a3
02a5
fbdb
feb5
ffc2
0201
ff44
0345
0127
fe54
fe59
fe8a
fce2
ff7a
02a3
00cb
0248
fed9
fe71
ff37
fe4b
03b4
ff77
01eb
009c
fef1
01eb
0115
00b7
fff9
0085
0110
0345
ff7b
ff27
fdd7
ffc7
00ad
0366
fdf0
fc14
fefb
ff7f
fea3
044c
fa98
fde2
fefc
00d8
017a
0018
011b
ff63
fcd3
0002
fdec
fbb0
fe60
ff37
fff3
0001
0036
02f6
0084
007e
02ba
0230
fe6e
00be
fe82
0015
02e1
003d
ff56
fd81
00bc
ffd4
0191
0165
0176
0239
ffbb
0296
fcdd
022d
fdfa
fcac
ff95
ff76
01b8
fe8a
fdba
003e
00e8
fe6d
003d
fdbf
003d
fff1
fb4b
00e6
ffa4
fe25
038b
00e2
ff29
fed7
007e
019e
003e
0110
fe35
ff99
01f3
0038
0124
ff77
0275
fec5
fe7c
fd84
008f
ffbf
0196
ff1b
fd07
0014
fe50
fec4
01fe
00da
ff21
ffed
fdbf
fd6b
010a
022b
00c0
fe04
ffc2
ffd1
ffe2
fd7c
00df
ffa0
fde1
fc82
fdb3
fe85
006d
0174
fd0e
0141
017f
fe91
fe8c
0382
ff8b
0120
ff55
ff71
fd34
ff93
fdc5
fe30
00ea
fef4
0411
ff80
0186
00b2
fd3d
fbc2
fcd4
ff9e
0206
fec6
004a
0050
04fd
fef5
ff03
ffe3
003e
fba5
fff5
fedb
ffb5
fe24
0184
01ff
0108
01a5
fe52
fe5b
fed6
0152
01c6
01b5
0051
0089
018e
feb0
ff53
00be
02f5
012e
fff0
ff10
0045
fad8
0159
00eb
fe64
00a3
001e
fe0e
0296
0054
fe09
0418
ffea
febc
0169
01ae
0098
fa85
ffe6
ffdc
ffcc
012d
0078
ff8b
fd3e
0146
ff87
004e
0230
019b
005c
fe4f
fe66
fd8d
fef4
035a
ffd2
fff1
0021
0116
023f
ff9b
0185
05da
fb42
ff6d
ffdd
0011
005f
fec3
05ee
ff6e
006d
ff95
0102
0100
0096
02ab
ffbc
01e7
fd39
01ec
0105
0117
0044
ff62
fb94
feef
ff87
fe8d
00c9
ff4d
0104
fee2
00de
0029
ffb3
fde3
0274
ff4c
fdae
0286
fe68
fe52
004e
fd4c
febf
fc9b
fc6b
fffa
ff9a
025d
0367
0084
00c7
fdc2
ff25
0030
01da
0127
ffae
ffa6
fe75
fd57
fe4a
ffe0
006b
ff96
008b
0369
0068
ff6c
ffca
fc33
010d
006f
0076
fe52
fe7a
fd57
0014
055c
00d7
03d9
fe7c
0048
01ef
0247
fcad
ff17
01d9
031a
feb3
fe7c
fd4b
ffb2
fe97
0335
02a8
005b
0288
016a
0019
0160
0165
000c
fed1
ff94
0067
0289
fed1
ffb3
0242
ff0e
01c8
fe10
ff59
ff8c
02b8
002b
fda4
fda3
03b6
0104
ff25
0195
feb9
00b9
fece
003f
fdc3
00ba
01fc
ffa9
011d
fe91
ff84
0060
0193
0021
ff10
fdd6
ffbe
fdd0
0184
fca3
006f
ff88
ff74
fff2
0133
0095
fd78
01fc
fe11
ff8e
0117
ffc6
fe46
fe9b
ff17
02c0
fd7a
01fa
fd7d
ff01
00ec
fe85
ffd2
ff6f
fe31
0319
ffac
02e7
fbff
020a
fff7
ffc1
021b
01b7
0259
018f
ff87
ff28
ff06
fdce
01e7
0182
009e
ff3b
fe82
ff3b
ff94
00f8
0137
fd0a
0029
004a
0093
fe02
0074
ff63
00f5
00ad
014e
02cd
00e8
0115
01c5
fe71
ff0d
fff2
ff64
0309
0018
fdb2
fce2
0504
fffa
01e4
0142
0358
ffe6
fb84
fda3
ff9b
fee7
012b
ff18
038f
fed2
00c5
fd28
01e4
fd03
0034
ffb0
fd93
fe59
00c9
febc
0113
ff19
0087
fed6
0180
ff2e
fdb4
0089
01e5
feba
ffcd
ff52
01d2
febd
fe72
feac
0185
ffa7
01a7
ff98
0006
fe4b
ffc6
fd14
003c
fe18
0010
0042
010f
ffd1
ff23
042f
027d
00b9
fe12
00eb
fe4d
01c0
ff72
ffc2
0342
0270
00e7
ff8e
fdbf
01d0
ffea
ffea
fc26
fdef
fc3d
0020
ffc7
fc8d
ffe4
fe50
fb66
00fa
0399
fec6
012d
fff0
ff3b
0405
fdc7
0140
fd8d
fdec
015a
fe20
fff8
fefa
0069
fea2
00e8
fe41
ffef
ff54
fddd
fd69
fed2
fb85
045b
01b9
00ce
033a
fbd2
0152
fd07
00a0
ffe2
fcee
0140
0222
0083
0056
004f
fd7b
ffe5
0156
0092
02f1
005e
fe4b
00c7
013b
ff1e
0122
018b
fee5
0185
01ea
fdc3
fff3
0176
0030
017b
ff27
fda6
003e
fc48
0085
02d1
00bb
ff38
fed8
ffef
03e5
017d
ffc9
ff53
0062
037e
fe18
feb2
feff
ffe2
00a0
03ab
0150
fce6
fd64
ff8a
0019
00b9
febf
ff85
fdd2
fe14
ffdc
01de
fd90
0207
ff83
fe5c
015c
ff73
0058
ffa4
ffab
ffa5
00ff
fe70
0268
01b2
015a
00c1
006b
025b
01a0
007f
00c0
02fd
0316
02c0
ffb2
02c9
ff8e
01b2
0128
fff0
014b
0184
ff8c
0048
fe3b
04cd
fe8f
00e5
003f
01f6
ff12
01e6
029c
00a6
ff64
012e
fdd5
0050
027c
0067
fbc8
fea5
ffec
ff3a
fc69
fdac
017f
0018
fb08
01db
ff90
ffc9
fd8d
00e2
fea3
ff61
fdd3
fbe4
0279
fdf0
fe83
ffe0
0154
fee7
00ed
0370
00c1
fec3
022c
fe5a
ff30
010a
00ce
fd10
03db
0129
027d
0003
02cf
fee9
ffe5
ffee
016e
fd6b
01a5
ff58
fee9
008c
fc4e
0120
fe6b
00c6
00fa
05eb
fafa
fe4a
03ae
fe28
ffa1
ff81
fecf
03b3
0000
ff2d
0298
ff18
ffc6
ffa3
0375
ff2a
fd7f
013d
fe18
feb3
008f
ff5a
fda3
fff4
fddb
003f
fdc9
ff4e
035f
fe5f
0009
01fe
0215
013b
ffeb
0235
ff3d
03e2
0066
fd0c
04a6
ff23
00d6
01be
01f4
fe9b
ff01
002a
05a0
00e3
ffec
0077
01ce
035e
ffc6
fed7
fee2
fee6
01ae
00f0
0158
034e
ff94
