fffb
fe81
fdb0
082d
ffcb
fa9f
fe45
01cf
feab
03a1
02ac
ff98
febe
fd52
fe22
fc12
0336
043e
fca6
fcd9
fb49
fd6e
f7b7
fcf4
0375
ff14
0247
feb2
04b2
0088
fefb
06ce
ff22
fcbe
008a
ffe5
02d8
fd8b
0225
0246
fe38
006f
fdc9
0641
fe1f
fecb
fd28
ff14
fffc
020c
fe5f
ff81
fc39
fdcb
0759
02c7
fdeb
fc6f
fd66
fff1
0018
fe04
fc92
03cb
0134
ff00
ff69
fe97
f82c
004f
fd25
fd54
fe4b
01f4
fce1
fc2d
01b5
0203
fd71
0180
ff39
00ce
fca3
0239
0335
01b3
017d
f5f1
00b2
ffef
ff9c
fe52
0026
0119
ff4c
fec4
0348
fd0d
02bf
0079
fddb
ff3a
fd8c
01cd
00ee
fe84
fd10
00ce
028e
ffb2
011e
feff
002e
ff39
00c9
fbf9
01b8
ff63
00f5
ff18
00db
fd24
032c
fb75
fd3b
00a1
03e7
00be
ff57
fc33
ff7d
fff2
0482
01a9
fbec
0568
fef2
fda8
03ef
ffde
ff05
0095
0241
02a6
fc55
0554
0286
fefd
fdd1
fd6a
0054
fe46
fdf6
022a
00f9
fef3
01f5
03a5
fd15
fe64
0283
01eb
009b
031a
fd19
fc0e
fdb0
0054
fde1
feb3
fd66
fe58
fd52
00fb
021f
feb8
ff73
fe73
016b
003d
0440
fd14
00f7
012f
ff0a
018e
fc2a
05a6
fc6c
0274
fd03
0312
fef9
006c
0024
02ef
ff24
f816
fdf9
007d
fed3
020e
02b5
ff9b
fc07
03b1
02e3
ff34
059f
ff12
fcf8
ff96
02e0
fd80
0534
fd9c
028c
0174
ff97
02e2
fc00
039f
ffd5
fe8e
01ff
02d4
020e
0555
02e2
036c
fe8f
0049
0180
fff4
00ce
0123
0240
ffbb
ff11
fdcb
fd9f
0320
ffc6
0219
fc8a
fad5
fd34
030f
02d9
00e3
fddc
ffa7
ff35
ff14
f951
fdb6
ff7e
040b
006e
03bc
fef3
ff53
f59a
013c
0175
04b4
feb4
0040
fe1e
fcdd
fe19
ff14
039d
0002
fde4
0061
0095
fe32
030c
faf7
ff6e
01c6
fc6e
00f7
0373
0136
fb7e
fe0f
0349
00cc
fff9
012d
01ec
fe1c
ff3a
0062
fe8d
ffa5
0376
fd6b
0523
0503
fb6e
ffa0
00ea
fdf9
fe06
ff5e
01f9
fea3
04df
00c6
ffba
03dd
01ac
00fc
ff1e
04d6
022a
ff75
fbcb
00ff
fcf3
fb6d
ff41
00c0
036c
00c1
0226
fcbb
fff1
0055
024d
004f
0225
fea8
00f4
011b
fcab
0078
ff25
faec
028e
ff09
fdba
fefe
005e
0405
ff8f
0142
03aa
016c
02d9
febb
020e
ffd8
02dd
fd53
fdec
0362
ff7a
ff0b
0035
fe29
038d
fcab
ff99
00ed
ffb9
fddc
fdaf
0122
fd41
01b9
fbf0
fe85
0019
fca9
01bd
fff3
fd3d
fbf3
fbd3
0023
fcea
fc5c
ff62
0613
00bd
0209
0091
0217
fc6b
feda
00b2
fff4
ff7d
fe39
ff50
fdef
f98b
fcd1
0145
0427
04d6
0042
0262
026c
fe27
fb79
0015
fb4d
ff26
019f
fc37
0016
034f
00f7
0165
026b
049f
0067
0347
ffd4
fe8b
00d7
fe62
fe79
fe61
f9e1
0048
fca1
ffb7
03de
fe9c
fe8e
03a3
0175
029b
ff0d
01ff
fe2c
fe33
0197
fe68
020c
0661
fb81
fdfe
02fd
ff9d
0319
fd4e
00e2
ff99
0060
00e2
fcbf
fd23
03bb
00c8
0049
ffe2
00f3
fceb
fd56
037b
0067
0244
fe63
03ac
00ec
0149
0177
fde0
fb06
fd22
0459
0378
ff13
ff32
02c4
ff8d
fc89
0360
0146
f94a
ff2a
0062
0149
0068
fe4e
ffb1
00c9
ff49
ff02
0357
fd7a
ff11
fa95
0171
0235
0176
0272
012d
00ea
0144
ff4a
032b
ff12
fc1a
0244
04ef
fd71
ffbb
fe2c
fefc
001f
fcb0
ff42
fc17
fe7c
fcd6
fd2d
fb6a
0340
015c
fae3
fe69
fe36
fe28
fc24
0203
fef2
0140
0168
03ab
fb29
04a3
0362
0187
065b
008c
0231
fe08
0306
0073
fecc
05a5
ff30
0006
ff79
fdfc
016b
01f8
00f2
f9b5
02b0
ff11
fcc2
019c
0180
fd38
0698
fcc6
fb61
fcec
03ca
ff88
ff02
ffd6
fe69
fe29
fe4a
01e3
02b9
fd30
00a3
021a
fd1e
fea9
fd3b
fc8f
0046
fe09
01af
ffec
011a
ff38
fe4f
ffc2
fffd
fe1e
0123
01fe
006c
0492
fe50
0163
fee9
00a0
fdc9
02f9
0078
032e
fca0
feaf
fd9f
fe95
fe27
ffae
fff4
ffe4
fe85
0080
0256
fd98
0001
ffcd
0140
ffd4
fff5
fd5b
000f
fd8b
0160
ffba
001b
fda0
0225
01d9
024c
05f1
ffdc
0336
ffab
010d
00f9
00b5
01c1
ff31
001c
016d
04a9
fdc1
fb2f
feb6
003d
0077
003f
0327
029a
ffde
febf
ff14
ff0d
ff66
fbce
fec5
fede
ff7f
ff52
01cb
fe95
fed5
0172
ff5f
0094
01c9
0120
00ab
ff7a
01d2
0078
fea7
ff99
fcc0
fd70
fafb
fe30
0390
fe84
021a
fffe
fe22
0392
018d
fb54
02c7
fd22
ff87
01c8
ff33
02fc
0208
fbcc
febd
00c1
fe77
ff6c
0222
00d8
fd8c
0077
fe5e
fcc2
fcfd
00c4
ffed
0004
fcf2
ff82
fd3c
fd88
ff8f
fc50
01c9
06a2
0139
fd38
ff47
fbda
fefe
015a
0192
fd40
00cc
0315
04ae
fe22
fdb2
0025
f831
fe95
ff47
fec6
fbc7
ff58
fdee
0205
fd8d
ff3f
ff61
0183
f936
ff17
0207
ff09
fbee
00df
00e6
ff47
fce8
fe06
ff2a
fdaa
fae1
fdf3
ffd6
fea6
ffcc
0039
0264
05e0
01f4
fc41
f8ea
ffc0
0031
fce7
00ba
fdf4
0113
ff22
010f
fb5a
fed5
ff9b
fc33
0505
fe8f
03b5
fe3a
ff63
0328
00cf
0083
00b6
fc5b
fef6
fd73
0087
fe8d
ffe2
ffcb
ffe7
ffe8
fe43
fd30
fe3a
02dc
00ff
0191
03ae
fcdb
015c
fd22
ff1c
014b
044e
fdea
ffbf
0315
fc07
00f7
ff2e
fda6
0064
0196
fd91
0103
0076
fcb0
0424
02e8
fdb5
fe70
020e
feae
fb18
02cc
0006
0516
00f4
0082
07aa
ff8b
fd76
009c
0307
fce5
fd94
0133
f779
fd16
021f
fe6f
fbaa
0523
fc3d
fe9b
ff02
0039
ff04
ffc9
0027
ffc5
0040
f9a8
012d
fc41
fa39
03af
fc92
007b
fdf1
fe31
014a
fd34
00fe
0104
031b
ff1a
02ca
0497
043b
0190
0133
0799
05f4
fdf5
0277
019b
0031
0069
014d
0280
0095
00e8
03b6
00d9
0174
02a4
045b
0346
0102
008e
fcbd
00c7
fd3c
fd45
01bc
ffbb
0142
fe54
0334
0062
032b
01cc
0071
feb9
0016
0235
01dc
fcd0
02bc
ff6e
022d
fe24
01b3
fde0
0058
ff35
ff3d
fe7d
ff97
fb5c
0256
0291
fed2
fc52
fe47
0287
01ab
ff33
0265
fd39
fe5e
0144
ffbf
fe6e
f94d
01ca
00dd
fb5a
019a
fff6
00be
0285
fe07
01e7
01d3
0208
045d
01c2
fe81
04cc
fd0c
fec4
fd6e
ffba
02e3
0376
013c
fe60
fe86
fe64
028a
fd95
024e
ffea
0075
0408
febc
046e
fc3e
fdcd
fbca
fe02
018e
01f8
00d1
00b6
fcdf
fc76
00cf
0398
ff07
fc9e
fbe9
fe2f
0436
ff72
fd3b
fe60
feb6
00b5
fe3d
fda0
ff80
0140
01ea
0178
fec8
fb7b
fddf
00c2
fc72
00ac
fe6d
fe73
02fc
0095
03a7
fd7f
0304
026d
f803
ffc4
041d
0213
fed3
ff61
fc86
008d
fb38
fd4b
02fc
fff2
ff08
ffb8
0750
02c3
fdee
0472
ffc3
01f9
fe70
fd80
0223
fdf3
fdeb
0265
fce7
fc37
0174
fac6
fdff
ff06
fc6a
fd05
01c7
00c8
fd7a
0169
040d
fc95
002a
0545
01a1
022b
ff77
fddf
030d
01be
ffdd
fec2
fb57
006a
fe28
ffa6
01ca
0230
01eb
0603
031b
fe03
fdd1
0635
fe3b
ffe2
04a7
0493
ffdb
00a5
fba4
fd94
ff07
fffc
ff23
0068
05d9
013d
00d3
0001
ff8b
034a
fd5b
ffaa
fd14
003b
0051
0274
0332
01c5
0453
043c
00d7
00ff
fad6
00db
fffd
fb7f
feda
028e
fcb2
0373
0144
ff64
ff9f
0237
fc2f
0571
fdd5
fdf6
0341
021b
0389
02ca
0101
fc99
febd
0087
fff4
fa87
02c9
049e
03e7
fd49
012a
fa54
0482
fad4
0118
031a
0372
00eb
fc33
ffbb
ff49
00fb
02a2
