008c
ff6d
02ca
0075
fdab
0193
05ae
0420
fcef
fa7d
fd49
002e
f5e0
ff0c
fa93
fcd0
fda1
fe9f
01cb
048a
ff71
05f3
fd1a
0188
03ef
0069
fcc3
fbfc
fe02
00f5
fb9a
ff17
ff4e
025b
00ef
018c
fd27
ff70
036a
0681
fa84
0698
05dc
0367
0127
fea2
0659
0889
07d8
05ba
018e
fabd
fffb
02dc
fa64
01b8
01df
0308
fad8
fd1e
fe19
fae8
0793
fdd7
016f
fee0
06e5
05c0
02c2
f668
003a
02fa
045f
fd4f
07ef
fa40
fd1f
0412
0037
08b8
00d2
fd3e
fe5b
fb40
fa70
02bf
0288
05a3
fcb7
075b
fec0
06db
fe1e
fccc
0116
047e
00b3
fd73
fa29
f9e6
0230
044f
ff49
fb52
03cd
fa6d
fce5
02b4
f634
01af
fd78
007a
ffac
00e1
0306
fcb3
0630
0329
03ad
0513
036e
03ad
0054
f9c9
ff69
fca6
f9ce
0120
fd86
fb84
fb75
012b
0190
05c2
fff0
0489
061b
0502
f5b3
055a
017b
01d8
019e
01ab
0164
fe70
f7b8
ff87
fc80
04b4
febe
005d
fc4d
fdc7
fff3
f988
014f
ff8a
fad6
f58e
023c
feb4
fdb1
fef9
07e9
ffc8
0061
f986
072c
03ff
04a5
0035
03fe
019e
02ac
ff56
f995
047b
f793
fef5
ff1c
fb75
02ac
ff21
fe19
0244
fded
060c
0188
fdef
f789
fa4e
04bc
ffc8
fec4
0728
fa6a
fd73
fdf1
028e
fd1c
fd54
f903
032d
0383
fded
00b6
fa5f
fdf2
0600
0097
0a10
fc92
0287
ff26
0277
