0465
01db
fe31
fe0f
febd
0063
03cc
041e
0147
043b
0113
0167
ff82
0803
0689
fe09
037c
00f6
ff18
02f6
00b9
00a4
ff18
ffa0
fa98
fd5a
ffac
0385
066b
0170
fb41
fd14
01b7
fe06
fb99
fec5
fff1
01a4
fc4d
ff6f
028a
02c3
048b
021b
0073
0891
ffcf
0696
fdeb
04a3
fa32
0302
fd67
febd
fef6
fd93
f4f5
07d7
fe76
fa79
04d8
06aa
ffbc
ff2a
fb17
0195
fbf7
07ad
ff5b
0222
fc80
fda4
018a
fbb0
0364
fcc8
013b
fc55
03a0
fa36
ffb7
ff8a
f860
fcd3
0080
fb9f
fedc
f51e
003e
fc2f
fb48
fccc
fe60
fdc3
013c
038c
01c4
ff08
04de
fc30
fe46
f409
ffe7
fded
0488
fe14
fd8c
092d
01ac
fcd8
f9b2
faa0
047b
000c
0210
014f
fd51
fda4
031d
fede
fe90
fedc
0043
0557
0178
039f
fbc7
fc13
04fc
01d2
0135
ff34
0646
0179
fe71
fe6b
fee2
038c
0291
0239
07a2
01dd
005d
02d0
026f
f960
fbef
0318
0380
ff07
fe41
fac6
009b
0154
02b1
fe70
fdbc
03f7
ff8e
0075
f980
fe1a
0543
055a
feff
01e5
0047
0853
f5c9
ffb3
f2e9
02fe
064a
ff92
009d
020d
04cd
f779
fe9e
0143
fe77
fd5c
fc67
fed8
00f4
04a7
0067
fc5e
0084
043f
fdd6
ffa9
0319
fd89
ff67
001a
020a
f832
00fb
fe55
ffa6
03ff
0232
08fc
020c
f82f
fd92
0184
0064
0509
f89c
01b6
0084
00dc
ff3c
fef6
fa42
0738
fc1e
03fe
ff26
ff57
077d
ff38
